. 102450
, 76064
de 68196
een 40726
het 38106
en 37674
van 35188
is 32103
in 27748
dat 27625
te 24150
je 21837
ik 18341
die 16335
ge@@ 16054
we 15989
k@@ 15662
zijn 15558
c@@ 14692
ver@@ 14438
s 14274
op 14216
v@@ 14198
st@@ 14110
d@@ 14044
d 13995
er 13160
t@@ 12801
niet 12649
e@@ 12501
om 12421
s@@ 12258
ze 12124
&quot; 12122
p@@ 11829
b@@ 11639
be@@ 11144
f@@ 11044
k 10888
met 10812
t 10808
in@@ 10707
ten 10662
m@@ 10354
voor 10299
Ik 10287
en@@ 10230
: 10176
on@@ 10154
z@@ 10154
er@@ 9877
den 9863
ing 9506
aan 9447
als 9434
o@@ 9225
re@@ 9103
i@@ 8691
Het 8480
g@@ 8321
e 8312
op@@ 8263
? 8009
ie 8005
g 7923
wat 7902
u@@ 7728
l@@ 7636
En 7621
was 7526
a 7402
a@@ 7214
w@@ 7147
over 7110
dit 7097
or@@ 7044
hebben 6964
h@@ 6950
-@@ 6935
naar 6893
de@@ 6814
deze 6814
-- 6766
st 6523
le@@ 6521
ie@@ 6504
an@@ 6377
el@@ 6125
dan 6051
of 5995
maar 5950
ken 5923
n@@ 5877
gen 5792
We 5629
ar@@ 5539
al 5493
om@@ 5409
r@@ 5360
mensen 5336
uit 5327
uit@@ 5255
kt 5228
p 5215
el 5183
sch@@ 5167
at@@ 5132
ter@@ 5091
al@@ 5051
ro@@ 5012
sp@@ 4961
De 4958
door 4915
kunnen 4879
ij@@ 4814
mijn 4787
te@@ 4745
et 4617
voor@@ 4611
zien 4484
me 4460
ons 4414
m 4401
Maar 4384
D@@ 4342
oo@@ 4308
Dit 4301
kan 4293
zo 4216
di@@ 4186
it@@ 4178
la@@ 4176
men 4149
aar@@ 4138
doen 4074
gel@@ 4068
ook 4021
W@@ 4011
pen 4000
o 3991
waar@@ 3977
O@@ 3950
ol@@ 3890
gen@@ 3804
ur@@ 3795
ig@@ 3745
Ze 3741
bij 3715
hij 3703
Dat 3703
der 3692
jaar 3667
ma@@ 3665
S@@ 3654
aan@@ 3589
ch@@ 3569
is@@ 3532
C@@ 3495
waar 3490
ste 3461
we@@ 3461
mo@@ 3455
aa@@ 3441
vol@@ 3420
f 3418
cht 3407
zou 3393
geen 3387
B@@ 3367
an 3330
&apos; 3326
am@@ 3319
atie 3315
veel 3311
ven 3295
ei@@ 3294
meer 3288
eren 3282
gaan 3281
onder@@ 3255
lo@@ 3242
ot@@ 3201
ra@@ 3201
hoe 3181
nog 3170
M@@ 3168
vo@@ 3146
y@@ 3137
ige 3135
V@@ 3119
ingen 3111
heid 3108
heeft 3101
ul@@ 3096
i 3087
wereld 3058
lijk 3057
hun 3055
T@@ 3036
Dus 3024
Z@@ 3022
hier 3018
af@@ 3015
worden 3012
ou@@ 3007
onze 2993
aal 2989
ele 2984
da@@ 2978
der@@ 2970
es 2960
ri@@ 2950
tot 2946
j@@ 2944
l 2939
ne@@ 2921
nu 2920
den@@ 2914
Je 2894
iets 2889
ti@@ 2879
u 2879
maken 2875
1@@ 2872
oe@@ 2841
A@@ 2813
kl@@ 2811
dingen 2808
N@@ 2789
per@@ 2784
Als 2765
over@@ 2762
il@@ 2756
G@@ 2715
et@@ 2702
leven 2698
pro@@ 2698
heb 2657
andere 2650
w 2649
K@@ 2648
H@@ 2627
ic@@ 2584
ger@@ 2584
rij@@ 2572
ij 2562
ap@@ 2558
y 2541
ische 2538
ze@@ 2534
ond 2524
and 2521
jullie 2465
had 2461
♫ 2444
em@@ 2418
za@@ 2400
wer@@ 2397
ken@@ 2396
E@@ 2388
un@@ 2366
ss@@ 2356
du@@ 2352
he@@ 2351
ont@@ 2350
wel 2343
wa@@ 2324
P@@ 2313
ende 2303
moeten 2302
wij@@ 2297
kken 2295
gev@@ 2278
Hij 2278
- 2278
ster@@ 2275
to@@ 2273
ho@@ 2273
gr@@ 2272
ijk 2271
pa@@ 2265
echt 2249
ru@@ 2248
zen 2239
I@@ 2235
her@@ 2234
ë@@ 2233
gaat 2228
men@@ 2222
zal 2215
on 2214
dus 2208
heel 2200
lie@@ 2199
ale 2180
do@@ 2176
cht@@ 2172
komen 2157
Wat 2155
sten 2152
beg@@ 2148
ter 2145
se 2144
omdat 2141
ke 2128
&apos;s 2111
ijke 2099
ker@@ 2064
Er 2060
eer@@ 2044
moet 2044
end 2043
In 2043
ein@@ 2035
wil 1995
ben 1990
ies 1989
oor@@ 1981
zoals 1977
tijd 1972
lu@@ 1970
con@@ 1968
ker 1966
me@@ 1966
ig 1964
aat 1964
ent@@ 1961
eld 1957
van@@ 1951
vor@@ 1949
twee 1948
wordt 1947
stu@@ 1937
zich 1937
één 1929
gt 1916
ste@@ 1905
toe@@ 1902
ec@@ 1894
J@@ 1893
goed 1890
im@@ 1882
zei 1882
L@@ 1870
zelf 1864
Een 1862
isch 1856
na 1852
hel@@ 1847
aar 1841
elen 1828
lij@@ 1817
han@@ 1808
waren 1805
bij@@ 1797
daar 1787
moe@@ 1786
os@@ 1781
br@@ 1780
ging 1775
li@@ 1765
wen 1761
del@@ 1759
ac@@ 1757
kte 1706
min@@ 1706
vi@@ 1698
eerd 1694
eerste 1683
laten 1682
iteit 1681
ding 1677
gro@@ 1670
dig 1669
denk 1665
alleen 1646
geven 1630
ge 1616
alle 1610
mee 1610
sen 1603
va@@ 1598
R@@ 1595
manier 1593
open 1591
ex@@ 1589
werd 1586
haar 1557
ko@@ 1553
denken 1536
mij 1532
ut@@ 1530
zeggen 1527
maa@@ 1526
dt 1524
soort 1522
weet 1520
ens 1516
hoe@@ 1502
ct@@ 1500
us 1497
dig@@ 1493
kan@@ 1493
zo@@ 1491
chten 1490
lan@@ 1487
sn@@ 1476
tu@@ 1475
delijk 1469
jes 1467
ve@@ 1458
man@@ 1449
um 1449
erg 1443
grote 1443
ik@@ 1441
na@@ 1434
best@@ 1434
komt 1425
au@@ 1424
ssen 1422
werk 1421
allemaal 1420
eel 1416
gew@@ 1416
2@@ 1413
comp@@ 1412
toen 1404
verb@@ 1402
ft 1401
aal@@ 1398
kinderen 1396
... 1396
schap@@ 1395
kun@@ 1394
ell@@ 1389
schap 1387
su@@ 1380
ui@@ 1377
ci@@ 1375
sle@@ 1371
ov@@ 1369
met@@ 1363
vert@@ 1353
ën 1349
pre@@ 1348
hele 1348
ijk@@ 1347
delen 1340
ele@@ 1339
uur 1335
ce@@ 1334
nieuwe 1325
; 1325
ree@@ 1323
ga@@ 1319
ber@@ 1318
mid@@ 1316
nen 1311
ach@@ 1310
5 1302
ich@@ 1302
hem 1299
kijken 1299
le 1295
oren 1295
onden 1294
uren 1294
daar@@ 1291
per 1283
werken 1283
war@@ 1274
af 1273
gens 1263
kel@@ 1263
net 1262
em 1262
mer@@ 1259
kk@@ 1258
weten 1255
ct 1250
ieren 1249
ran@@ 1243
plan@@ 1242
mee@@ 1239
ni@@ 1235
bi@@ 1232
zelfde 1227
ur 1225
elt 1221
inn@@ 1215
geb@@ 1215
bo@@ 1213
staat 1210
so@@ 1208
dag 1206
zouden 1206
h 1205
vinden 1202
wi@@ 1201
erd 1200
ist@@ 1191
land 1187
ziet 1185
nodig 1184
F@@ 1184
eens 1180
bou@@ 1178
kra@@ 1177
zie@@ 1176
ind 1175
icht 1175
bl@@ 1175
deel 1172
alles 1171
str@@ 1164
elijk 1162
ant 1162
ir@@ 1160
sta@@ 1155
hu@@ 1154
ga 1153
0 1146
tij@@ 1143
dr@@ 1142
oon 1136
zon@@ 1132
ier@@ 1130
idee 1128
willen 1124
hadden 1119
x@@ 1117
verander@@ 1113
ds@@ 1113
lei@@ 1109
eu@@ 1109
ief 1107
zullen 1107
voe@@ 1105
inter@@ 1101
bel@@ 1101
krijgen 1099
tre@@ 1097
boe@@ 1096
ein 1095
blij@@ 1094
drie 1094
ab@@ 1092
ers 1088
woor@@ 1086
iemand 1082
Hier 1080
weten@@ 1078
kunt 1077
Deze 1077
want 1077
tro@@ 1073
wee@@ 1072
no@@ 1071
besch@@ 1068
ger 1068
gewoon 1068
wel@@ 1066
kleine 1064
man 1063
all@@ 1058
3@@ 1057
dige 1054
omm@@ 1054
hebt 1054
pl@@ 1053
enk@@ 1053
oor 1051
n 1047
gebruiken 1047
wij 1046
geda@@ 1045
een@@ 1045
dan@@ 1044
weg 1041
raa@@ 1036
aam 1036
baar 1033
TED 1032
art@@ 1028
ke@@ 1028
ch 1028
ongeveer 1028
vrou@@ 1024
elden 1022
dru@@ 1021
se@@ 1020
versch@@ 1018
zeer 1015
sc@@ 1010
alen 1007
cre@@ 1004
pra@@ 1000
onder 998
mat@@ 998
elkaar 998
houden 998
anderen 997
je@@ 997
enen 996
aak 995
misschien 992
ver 991
ist 990
ijf 990
paar 990
spec@@ 987
par@@ 986
mil@@ 983
tegen 979
ple@@ 976
ijn 975
lev@@ 974
natuur@@ 973
rei@@ 972
! 971
tussen 971
zonder 970
ds 969
Hoe 968
zij 966
pt 963
ing@@ 963
kon 954
geleden 954
zelfs 954
vraag 951
chte 951
4@@ 950
og@@ 947
groe@@ 946
keer 945
Nu 945
dacht 944
toe 944
fa@@ 942
onen 941
ent 938
verhaal 938
ser@@ 934
lich@@ 934
hou@@ 933
sel@@ 930
groot@@ 929
bes@@ 927
zoe@@ 927
beteken@@ 925
kwam 924
har@@ 924
gra@@ 922
antwoor@@ 922
gesch@@ 921
produ@@ 920
lin@@ 917
daa@@ 915
sen@@ 914
zi@@ 914
nie@@ 913
allen 911
ellen 910
hen 909
terug 908
geloo@@ 905
ert 905
voorbeeld 903
hoo@@ 902
syste@@ 899
fil@@ 898
plaat@@ 898
anders 898
iek 897
lijke 896
nooit 896
id@@ 895
aarom 892
ob@@ 891
sl@@ 888
verschillende 888
kelijk 887
doet 887
plaats 885
cont@@ 884
ben@@ 883
gez@@ 880
kon@@ 879
mu@@ 879
door@@ 879
ders 879
gd 876
elke 874
eft 873
sche 872
oel 869
var@@ 869
elde 868
heden 864
ed 864
staan 860
ant@@ 860
ieve 859
probleem 859
ide@@ 856
eigenlijk 855
Amerik@@ 854
kant 854
zet@@ 852
jar@@ 851
nemen 851
spre@@ 851
eigen 849
die@@ 848
erde 848
zie 848
ool 847
ta@@ 846
jaren 844
eerde 843
19@@ 841
gebru@@ 839
zit 839
nam@@ 839
ma 839
waarom 835
wil@@ 834
halen 834
ks 831
jon@@ 830
water 830
tra@@ 829
Ver@@ 828
ha@@ 828
mensel@@ 825
gelu@@ 825
bewe@@ 825
ten@@ 822
technologie 821
ruim@@ 819
or 818
kt@@ 818
altijd 817
foto 817
noe@@ 817
huis 813
gemaakt 813
&apos;n 813
werkt 812
bedr@@ 811
oven 810
wanneer 810
omen 808
ati@@ 808
kten 803
sto@@ 802
draa@@ 802
ier 801
laat 801
stellen 800
2 799
maakt 799
steeds 799
gl@@ 798
Al@@ 798
ings@@ 795
begrij@@ 795
miljoen 794
aut@@ 792
mar@@ 789
hier@@ 785
loo@@ 785
and@@ 785
sla@@ 782
ontwikkel@@ 780
ontde@@ 780
aties 778
8@@ 776
dra@@ 776
sy@@ 775
A 773
iedereen 771
form@@ 770
doo@@ 766
On@@ 766
geld 765
lee@@ 765
bent 763
ren 762
zegt 762
stru@@ 761
vragen 761
chts 760
tuur 759
interess@@ 759
us@@ 759
procent 758
hei@@ 757
igen 754
si@@ 753
6@@ 753
vertellen 752
krij@@ 752
ess@@ 751
Toen 750
ff@@ 749
weer 748
pers@@ 747
lang 746
md 745
aag 743
Mijn 742
gest@@ 741
leren 741
even 741
samen@@ 738
ug@@ 736
econ@@ 736
5@@ 735
vroe@@ 734
win@@ 732
alis@@ 732
00 730
kend 729
landen 728
del 726
hal@@ 726
beetje 726
komst 725
belangrijk 723
Ne@@ 723
od 722
vin@@ 719
vis@@ 719
schijn@@ 719
wijl 717
ontwer@@ 716
gebeur@@ 715
len 715
brengen 714
dollar 714
nieuw 713
act@@ 713
aantal 712
berei@@ 712
enden 710
bep@@ 709
vou@@ 707
ve 707
ïn@@ 706
goede 706
olog@@ 705
for@@ 704
bare 704
verk@@ 704
ijkheid 703
dui@@ 703
mogelijk 702
rel@@ 700
vier 698
onderzoe@@ 698
wilde 695
zitten 693
eld@@ 693
beren 693
vandaag 693
laatste 693
ts 692
gebou@@ 692
Talk 691
binnen 691
9@@ 691
deren 690
hoop 690
vri@@ 689
10 689
elk 688
beter 685
tegen@@ 683
gebie@@ 680
belangr@@ 680
the@@ 680
Subtitles 677
Transcript 677
vlie@@ 677
moo@@ 677
anden 676
moment 670
punt 669
Op 667
elijke 666
hoof@@ 666
ron@@ 664
Die 664
teren 663
gebeurt 663
um@@ 662
zodat 662
zu@@ 662
aanse 661
net@@ 661
groot 661
eten 660
meest 660
ine 659
waaro@@ 657
volgende 656
onnen 656
ooit 654
genoeg 652
Afrika 651
ander 649
pr@@ 648
ment 648
proje@@ 648
twee@@ 647
geme@@ 647
niets 647
gi@@ 646
gingen 642
sie 642
proble@@ 642
kij@@ 642
7@@ 638
il 637
bro@@ 634
beginnen 634
dur@@ 633
Indi@@ 632
.@@ 630
ï@@ 630
ë 626
gels 625
50 624
het@@ 623
tr@@ 622
kom@@ 622
un 621
ort 618
com@@ 618
let@@ 618
hi@@ 617
orgen 616
1 614
werk@@ 613
kkel@@ 612
ne 611
uur@@ 611
pp@@ 608
ire 608
ban@@ 603
imp@@ 603
pass@@ 602
pub@@ 601
ation@@ 601
ba@@ 600
ut 599
samen 599
bed@@ 599
mogel@@ 598
St@@ 598
icht@@ 597
We@@ 596
po@@ 594
No@@ 593
dat@@ 593
bet@@ 592
organis@@ 592
vers@@ 590
20 590
8 589
kle@@ 589
3 587
stell@@ 585
ast@@ 582
aat@@ 581
wor@@ 579
rec@@ 575
ater 574
scha@@ 574
kennen 569
energie 567
werden 566
Y@@ 565
ens@@ 564
S 563
wie 563
kwa@@ 562
eff@@ 561
eri@@ 560
sig@@ 560
ivers@@ 560
nieu@@ 557
nat@@ 553
peri@@ 553
gang 552
é 552
La@@ 551
iz@@ 551
qu@@ 542
spe@@ 536
els 535
kop@@ 533
fun@@ 533
entr@@ 530
issen 529
bew@@ 529
ogen 528
enor@@ 527
medi@@ 527
b 525
soor@@ 521
leu@@ 520
gebrui@@ 520
U@@ 519
fe@@ 515
Ge@@ 514
x 514
0@@ 513
En@@ 512
6 512
Be@@ 510
4 506
dro@@ 506
as@@ 502
eite 502
beste 501
mis@@ 501
Ja 498
7 498
mp@@ 496
beeld 494
ien 494
kor@@ 491
ck@@ 491
les 490
reden 489
ster 484
ene 483
it 482
gan@@ 482
kam@@ 482
ali@@ 481
ult@@ 478
fin@@ 474
eit 471
int@@ 470
ven@@ 467
licht 467
gele@@ 466
bas@@ 466
gebe@@ 463
zes 459
ffen 457
bu@@ 456
polit@@ 456
neer 455
ggen 454
Dank 453
da 453
Chin@@ 453
mer 453
gram@@ 452
fer@@ 449
ia 449
zei@@ 449
ges@@ 447
c 446
&#9@@ 445
ce 444
rit@@ 442
am 442
wan@@ 441
stand 440
itu@@ 439
Mar@@ 438
uten 436
ment@@ 435
9 434
lang@@ 433
Men@@ 430
elt@@ 429
uter@@ 428
racht 427
spr@@ 425
ir 424
au 424
sol@@ 423
ris@@ 422
rop@@ 421
amil@@ 420
30 419
ieden@@ 418
An@@ 414
Ma@@ 409
yp@@ 408
verl@@ 406
0.000 406
200@@ 403
eg@@ 402
ag@@ 396
ijn@@ 394
.000 393
proc@@ 391
In@@ 388
pt@@ 386
Re@@ 382
100 382
ologie 381
kla@@ 381
goe@@ 381
sel 378
inder@@ 377
mei@@ 377
kre@@ 376
mand 374
tig 373
maal 371
ble@@ 366
ragen 364
chn@@ 359
New 359
,@@ 353
gel 350
ja 350
igt 350
én 350
son 349
% 348
ak@@ 346
ub@@ 345
sk@@ 344
weg@@ 344
nor@@ 343
eiten 343
eigen@@ 343
innen 342
teken@@ 342
kel 340
chtig 339
dden 338
nis 335
Le@@ 332
fra@@ 331
ogra@@ 331
bren@@ 330
hr@@ 329
ppen 329
eil@@ 329
as 329
Nat@@ 329
eter 328
rie@@ 327
ot 327
spro@@ 325
richt@@ 324
schien 324
get@@ 323
é@@ 318
ft@@ 317
handel@@ 317
mor@@ 316
lange 314
uter 311
zelf@@ 311
geh@@ 310
B 310
De@@ 306
sie@@ 306
sa@@ 306
He@@ 305
gs@@ 305
belan@@ 305
El@@ 304
enten 304
K 303
onge@@ 302
wen@@ 299
Te@@ 298
eit@@ 297
Sta@@ 294
Me@@ 293
nt 292
bin@@ 289
ku@@ 289
20@@ 288
r 284
amer@@ 283
bar@@ 282
iel 278
erg@@ 277
Ro@@ 277
volu@@ 277
alle@@ 277
Da@@ 274
gende 274
zwe@@ 274
zel@@ 273
zin@@ 267
TE@@ 265
mt 264
000 264
he 264
Gro@@ 259
ontwi@@ 258
bei@@ 256
rik@@ 254
fot@@ 252
Sp@@ 250
fte 248
ts@@ 248
vraa@@ 248
hy@@ 243
star@@ 242
iger 238
dre@@ 238
ill@@ 237
iti@@ 236
Ar@@ 235
milj@@ 233
Af@@ 230
lt 230
pun@@ 230
alt 229
Mo@@ 229
ck 228
ka@@ 228
Wie 227
genoe@@ 223
D 223
Sch@@ 222
des 221
zul@@ 220
ort@@ 219
ullie 219
ber 219
denen 217
ó@@ 216
ler@@ 216
z 212
gend 211
stee@@ 210
Ha@@ 209
schei@@ 209
O 208
C 207
end@@ 205
ms 205
gte 204
oh@@ 203
os 202
Zu@@ 202
ar 199
macht 198
dem 196
Ja@@ 195
/ 195
Dan@@ 187
ss 187
To@@ 187
V 185
im 184
ften 184
Afrik@@ 183
elk@@ 181
nten 181
rol@@ 181
Sa@@ 179
Par@@ 178
ute 174
stat@@ 174
bil@@ 173
ins 173
ieder@@ 173
sent@@ 171
è@@ 171
Wa@@ 170
I 169
Wer@@ 169
U 167
oen 166
lig 161
M 159
rich@@ 159
Do@@ 157
hin@@ 156
T 156
gef@@ 156
G 153
Ho@@ 152
erst 152
aus 151
ner 150
ere 150
Inter@@ 149
P 149
” 146
Pro@@ 145
Bo@@ 145
Mil@@ 144
– 141
… 141
Au@@ 139
’ 138
ges 138
kinder@@ 137
tit@@ 137
Na@@ 136
Gen@@ 136
v 135
ander@@ 135
imm@@ 134
ler 133
ern@@ 129
H 128
stem 127
neu@@ 125
hil@@ 124
Bil@@ 123
ull@@ 123
“ 123
nen@@ 122
spi@@ 121
itt@@ 120
mit@@ 119
Man@@ 119
eh@@ 118
E 117
&apos;@@ 116
At@@ 115
Ber@@ 115
mus@@ 115
dies 113
Se@@ 113
veer 112
daag 111
elle 111
N 110
tes 110
Ein@@ 110
wol@@ 109
So@@ 108
Je@@ 104
W 104
Her@@ 103
Ra@@ 103
einen 102
aant@@ 102
tigen 102
fre@@ 102
F 101
Univers@@ 99
Man 99
.. 99
ser 99
be 98
arbei@@ 98
chen 97
Ex@@ 97
du 95
und 95
flu@@ 94
Mon@@ 93
einer 93
Kon@@ 93
Er@@ 92
ergie 92
fan@@ 91
viel 91
her 91
Sy@@ 90
ht 89
schie@@ 89
Bi@@ 89
sse 88
verh@@ 88
ommen 87
ation 87
ob 87
Or@@ 87
fen 86
L 85
Di@@ 84
all 83
Ab@@ 83
Per@@ 82
verschill@@ 79
Ta@@ 79
wer 78
&@@ 77
Ant@@ 77
Gr@@ 76
j 76
‘ 75
For@@ 74
ade 74
X@@ 73
nach@@ 73
War@@ 73
chnologie 73
wei@@ 73
Mat@@ 72
hat@@ 71
Bu@@ 69
Un@@ 67
laat@@ 67
Q@@ 67
Min@@ 66
twe@@ 66
Wo@@ 65
R 63
ön@@ 63
isch@@ 62
Tal@@ 62
ff 61
ug 58
fe 58
Vi@@ 57
erste 56
omp@@ 55
ü@@ 55
dar@@ 55
olit@@ 54
vro@@ 53
ör@@ 52
nie 51
Mus@@ 51
heb@@ 51
à 51
bei 51
itte 50
enz 50
noch 48
X 48
tion 48
Vor@@ 47
$ 47
Stu@@ 47
ell 46
und@@ 46
á@@ 45
che 43
ich 43
wie@@ 43
Die@@ 43
Fil@@ 42
Proje@@ 42
J 42
Was 41
Bei@@ 41
Desig@@ 41
The@@ 41
lau@@ 41
aaro@@ 40
immer 39
nte 39
wa 39
bar 39
Fre@@ 37
eil 36
ganis@@ 36
inge 36
eine 35
Fa@@ 35
aus@@ 34
fol@@ 34
under@@ 34
kti@@ 34
Comp@@ 33
sam@@ 33
Amer@@ 33
ö@@ 33
ann 33
so 32
É@@ 32
ê@@ 32
ion 30
iere 29
Plan@@ 29
Geb@@ 28
war 28
— 28
è 26
Y 26
etje 26
lassen 25
pf@@ 25
° 25
Art 24
ó 23
Ger@@ 23
Tran@@ 22
í@@ 22
ung 22
Q 21
unde 20
½ 20
begr@@ 20
Z 20
Kin@@ 20
ehr@@ 19
hau@@ 19
itten 19
gend@@ 19
sonder@@ 19
atz 19
ung@@ 18
ih@@ 18
das 18
schaffen 17
sch 17
Sub@@ 17
Fra@@ 17
von 17
ñ@@ 17
schaft 16
zur@@ 16
♪ 15
mal 15
cher 15
Ide@@ 15
+ 14
kam 14
enn 14
hat 14
ï 14
über@@ 13
einige 13
ã@@ 13
Geld 12
gten 11
cken 11
lar 11
wir@@ 11
hr 11
Proble@@ 11
= 11
q@@ 11
) 11
aats 11
brau@@ 11
kein 10
weil 10
wollen 10
viele 10
sser 10
wissen 9
mit 8
q 8
sser@@ 8
wur@@ 8
bt 8
etz@@ 8
script 8
ckl@@ 8
Rei@@ 7
dies@@ 7
Geh@@ 7
zwi@@ 7
# 7
à@@ 7
ç@@ 7
kur@@ 6
@ 6
* 6
unden 6
Gesch@@ 6
¨ 6
iert 6
quot@@ 6
unter@@ 6
Wir@@ 6
Nach@@ 6
Ges@@ 6
Weg 6
ript 5
will 5
hin 5
Dollar 5
Schul@@ 5
² 5
ün@@ 5
wach@@ 5
sst 5
versu@@ 5
ň@@ 5
wo 4
oment 4
nicht 4
´ 4
uns 4
ú 4
doch 4
ersten 4
aber 4
schen 4
ä@@ 4
mir 4
steh@@ 4
lich 4
aut 4
zu 4
issen@@ 4
Milli@@ 3
unter 3
`@@ 3
` 3
glau@@ 3
dass 3
º@@ 3
ierte 3
Land 3
auf 3
Mö@@ 3
ern 3
^ 3
ò@@ 3
zwei@@ 3
zeu@@ 3
heit 3
£ 3
glei@@ 2
​ 2
( 2
ür@@ 2
öl@@ 2
zt 2
ú@@ 2
î@@ 2
bin 2
bis 2
neh@@ 2
Idee 2
apos@@ 2
tern 2
ehr 2
â@@ 2
ì@@ 2
für 2
wird 2
auf@@ 2
ckt 2
sich@@ 2
Wei@@ 2
Es 2
kommen 1
Ih@@ 1
sein 1
Das 1
å@@ 1
Ich 1
habe 1
Aus@@ 1
sind 1
mein@@ 1
ganz 1
weise 1
üt@@ 1
welche 1
durch 1
keiten 1
meinen 1
mensch@@ 1
neue 1
mög@@ 1
á 1
™ 1
º 1
ität 1
Ó@@ 1
halten 1
¾ 1
gab 1
tun 1
ā@@ 1
uden 1
tet 1
ê 1
€ 1
¼ 1
