, 132790
. 100070
die 40558
und 35654
der 30177
ist 26500
es 25126
in 23134
das 21977
zu 20779
ich 19545
wir 17891
s@@ 17574
den 17215
er@@ 16878
K@@ 15955
ein 15658
f@@ 15030
t@@ 14974
Sie 14898
sie 14755
t 14472
er 14436
Und 14359
ten 14276
eine 13980
von 13847
&quot; 13538
sch@@ 13535
an@@ 13093
S@@ 13069
dass 13010
nicht 12870
st@@ 12506
k@@ 12256
m@@ 12256
e 11719
h@@ 11660
te 11610
M@@ 11602
ge@@ 11426
F@@ 11367
b@@ 11021
g@@ 10997
l@@ 10644
auf 10457
n@@ 10384
z@@ 10272
mit 10217
d@@ 10183
B@@ 10020
be@@ 9827
en@@ 9751
ung 9688
s 9662
um 9634
: 9352
a@@ 9320
P@@ 9246
ch@@ 9235
Ich 9168
D@@ 9080
en 9077
wie 9053
ver@@ 8982
gen 8942
i@@ 8890
an 8781
sich 8744
u@@ 8466
r@@ 8432
? 8422
un@@ 8406
haben 8397
in@@ 8379
sind 8372
H@@ 8328
T@@ 8097
-@@ 8020
W@@ 7908
für 7778
L@@ 7739
man 7648
al@@ 7618
G@@ 7424
dem 7420
einen 7317
m 7243
ein@@ 7085
so 7074
war 7028
re@@ 6971
ar@@ 6940
Das 6933
was 6885
n 6877
e@@ 6816
ü@@ 6774
au@@ 6746
o@@ 6708
w@@ 6690
p@@ 6513
als 6432
lich 6381
Es 6304
ä@@ 6218
chen 6214
aus 6204
ei@@ 6069
des 6001
N@@ 5958
ö@@ 5946
or@@ 5902
diese 5878
le@@ 5732
im 5565
A@@ 5552
wenn 5544
ben 5533
gen@@ 5517
zu@@ 5508
st 5501
Z@@ 5437
ra@@ 5425
it@@ 5422
R@@ 5358
de 5355
Sch@@ 5262
St@@ 5261
Wir 5257
el@@ 5105
einem 5076
ge 5069
über 5057
einer 5044
ch 5041
Ver@@ 5022
rei@@ 5008
uns 4996
hat 4996
ol@@ 4995
E@@ 4992
a 4949
werden 4875
C@@ 4837
ss@@ 4791
ie@@ 4734
können 4723
at@@ 4720
g 4665
O@@ 4625
on@@ 4598
oder 4476
ig@@ 4466
ieren 4445
et@@ 4421
ent@@ 4412
-- 4381
de@@ 4325
is@@ 4314
hier 4296
ter 4284
auch 4263
Aber 4161
da@@ 4125
kann 4106
Be@@ 4079
sehr 4063
aber 4047
I@@ 4037
Die 4035
wird 4016
d 4000
ur@@ 3965
gibt 3890
aus@@ 3865
Er@@ 3860
Ge@@ 3859
ungen 3845
iert 3840
ft 3818
ot@@ 3817
sten 3806
che 3796
nur 3762
Re@@ 3753
sehen 3718
o 3711
je@@ 3682
la@@ 3669
di@@ 3653
cht 3625
ri@@ 3608
dann 3595
kt 3552
ut@@ 3523
An@@ 3513
sein 3505
auf@@ 3472
am@@ 3457
men 3435
y@@ 3430
te@@ 3413
- 3399
sp@@ 3398
– 3395
also 3383
se 3348
habe 3337
ab@@ 3334
hr@@ 3322
bei 3317
lie@@ 3313
l 3296
her@@ 3293
gt 3291
etwas 3289
zen 3289
mich 3288
Menschen 3280
wi@@ 3270
ß@@ 3235
len 3202
v@@ 3177
sen 3167
c@@ 3158
noch 3154
V@@ 3123
In@@ 3119
vor 3097
ie 3045
ff@@ 3039
der@@ 3029
nen 3025
ssen 3016
i 3013
il@@ 3001
ru@@ 2997
dieser 2995
y 2980
fa@@ 2973
on 2971
ti@@ 2921
kl@@ 2917
sa@@ 2914
än@@ 2913
Welt 2906
nach 2884
1@@ 2878
J@@ 2841
ma@@ 2825
le 2818
ben@@ 2793
ro@@ 2764
ste 2751
et 2751
über@@ 2738
lichen 2727
om@@ 2725
ige 2723
Sp@@ 2722
f 2713
me 2694
rie@@ 2675
ier@@ 2668
machen 2649
äh@@ 2643
mir 2634
Wenn 2631
we@@ 2627
liche 2621
ger@@ 2603
alle 2602
vor@@ 2596
mehr 2590
li@@ 2565
fü@@ 2533
ber@@ 2531
all 2517
ne 2503
eh@@ 2502
zi@@ 2497
um@@ 2478
kt@@ 2473
ör@@ 2465
cht@@ 2461
wirklich 2450
al 2441
ck@@ 2434
and 2433
Also 2433
wen@@ 2401
fen 2399
r 2376
ern 2374
Ein@@ 2372
lich@@ 2369
lei@@ 2368
all@@ 2342
h 2338
Ihnen 2336
♫ 2303
ischen 2299
ir@@ 2298
eines 2290
wurde 2289
ische 2287
ik@@ 2275
durch 2275
Ar@@ 2257
ün@@ 2252
chte 2251
da 2244
den@@ 2237
z 2234
am 2222
geb@@ 2222
zum 2219
ter@@ 2215
immer 2214
ation 2210
men@@ 2201
hei@@ 2196
gel@@ 2195
ken 2187
Gr@@ 2185
op@@ 2183
weil 2151
tun 2150
dar@@ 2149
heit 2146
ann 2133
ell@@ 2112
tra@@ 2111
lo@@ 2104
ul@@ 2103
icht 2102
är@@ 2096
ur 2094
meine 2093
u 2087
k 2085
chten 2084
br@@ 2079
gr@@ 2068
be 2051
Au@@ 2050
Leute 2045
el 2040
äl@@ 2038
Was 2030
sagen 2023
ik 2016
gef@@ 2013
dieses 2001
äu@@ 1994
schaft 1983
hin@@ 1980
nt 1978
kti@@ 1972
ke 1968
Er 1963
j@@ 1963
Ma@@ 1960
ha@@ 1954
U@@ 1943
b 1939
Dinge 1929
gl@@ 1924
wei@@ 1918
En@@ 1916
viel 1915
unter@@ 1912
ien 1904
ho@@ 1898
us@@ 1898
he@@ 1891
Zeit 1888
eit 1875
isch 1875
diesem 1865
keine 1859
Te@@ 1852
bei@@ 1849
for@@ 1847
ob@@ 1846
hatte 1842
hren 1806
ran@@ 1805
ungs@@ 1798
Vor@@ 1793
Art 1790
ze@@ 1788
Pro@@ 1787
kommen 1773
diesen 1771
sagte 1756
einfach 1754
Or@@ 1754
wissen 1748
Leben 1744
viele 1742
Jahren 1740
gesch@@ 1735
wo 1734
ap@@ 1721
unsere 1716
dr@@ 1716
Al@@ 1715
icht@@ 1705
ihre 1694
lu@@ 1692
müssen 1689
os@@ 1683
su@@ 1681
gehen 1677
zwei 1676
schen 1674
ss 1670
stell@@ 1665
jetzt 1654
stellen 1652
gan@@ 1651
mal 1647
bin 1640
gew@@ 1634
eigen@@ 1634
elt 1626
wer@@ 1624
geht 1623
tig 1620
Wa@@ 1619
ück@@ 1619
mer@@ 1612
alles 1597
waren 1595
glei@@ 1595
andere 1593
ür@@ 1588
Der 1587
onen 1564
nten 1564
geben 1562
zei@@ 1562
ens 1561
dies 1561
ig 1555
inn@@ 1553
anderen 1552
ß 1550
ich@@ 1549
würde 1536
wa@@ 1532
halten 1532
wor@@ 1528
; 1526
eu@@ 1524
finden 1520
sol@@ 1518
auen 1507
ihr 1504
se@@ 1493
hen 1489
det 1489
elen 1486
war@@ 1485
vi@@ 1483
ßen 1479
Jahre 1464
iger 1462
brau@@ 1461
du 1460
ne@@ 1458
bt 1456
ati@@ 1455
Ent@@ 1455
kon@@ 1451
Zu@@ 1449
Nun 1447
Wie 1446
eit@@ 1443
kom@@ 1441
tet 1438
si@@ 1437
damit 1437
bis 1428
sagt 1423
In 1418
zur 1413
us 1412
lt 1399
ze 1394
du@@ 1390
2@@ 1388
und@@ 1387
under@@ 1386
ft@@ 1385
man@@ 1384
isch@@ 1378
ken@@ 1377
sam@@ 1376
kun@@ 1376
Ges@@ 1376
so@@ 1376
muss 1375
hal@@ 1374
nehmen 1368
Aus@@ 1359
versu@@ 1357
end 1351
ck 1349
ellen 1346
x@@ 1341
and@@ 1341
ität 1338
groß@@ 1336
versch@@ 1335
ale 1335
oh@@ 1331
ist@@ 1326
kan@@ 1325
ster@@ 1322
her 1322
schon 1321
hl 1320
per@@ 1318
ät@@ 1317
Unter@@ 1316
em 1313
Da@@ 1313
Un@@ 1311
ger 1310
elle 1310
or 1309
fin@@ 1308
spi@@ 1305
im@@ 1303
selbst 1291
gut 1281
chn@@ 1278
denen 1275
denken 1275
La@@ 1270
ehr@@ 1267
ni@@ 1266
ts 1262
Vi@@ 1259
5 1256
schn@@ 1254
dort 1253
Le@@ 1252
ant@@ 1244
ex@@ 1243
For@@ 1241
tr@@ 1236
dung 1234
Men@@ 1233
best@@ 1231
möchte 1230
cken 1230
ste@@ 1228
Man 1225
ihnen 1219
lan@@ 1218
kommt 1217
denn 1213
davon 1211
fol@@ 1203
ler 1202
mög@@ 1200
uten 1200
nen@@ 1199
em@@ 1198
imm@@ 1198
unden 1196
sel@@ 1188
Kon@@ 1188
mein 1183
zusam@@ 1180
vol@@ 1178
ön@@ 1177
igen 1176
Her@@ 1169
wieder 1166
Geschichte 1165
Bil@@ 1165
ob 1161
wel@@ 1159
halb 1157
weise 1152
nach@@ 1151
werde 1151
schein@@ 1151
lä@@ 1148
sst 1147
Ta@@ 1146
schaft@@ 1144
vielleicht 1143
Hier 1143
ende 1141
scha@@ 1138
fer@@ 1137
eln 1130
! 1128
ffen 1127
is 1126
alen 1124
3@@ 1118
Kinder 1114
geh@@ 1108
zt 1108
ing 1105
tatsächlich 1105
tigen 1102
pp@@ 1102
ganz 1101
ak@@ 1100
unser@@ 1097
he 1096
Na@@ 1092
pr@@ 1091
ationen 1090
A 1089
Wei@@ 1086
ont@@ 1080
Jahr 1079
kte 1074
einige 1074
ster 1071
Auf@@ 1068
führ@@ 1066
ja 1063
nun 1063
mo@@ 1062
heute 1062
schie@@ 1060
drei 1058
unter 1057
sto@@ 1056
wir@@ 1055
hatten 1054
denke 1053
könnte 1052
üt@@ 1052
bringen 1049
igkeit 1047
zie@@ 1044
TED 1032
darüber 1032
ihn 1029
aum 1029
gemacht 1025
fe 1025
lin@@ 1021
We@@ 1019
beg@@ 1017
iti@@ 1017
etzt 1012
ierte 1012
lassen 1011
stellt 1005
Inter@@ 1005
sche 1004
aut 1001
rü@@ 999
leben 998
neu@@ 997
hör@@ 997
mein@@ 997
Sy@@ 997
ander@@ 996
größ@@ 992
wollen 991
seine 989
art@@ 988
Me@@ 988
qu@@ 985
fe@@ 983
paar 981
arbei@@ 977
del@@ 976
ute 976
lichkeit 974
Se@@ 974
rich@@ 973
macht 970
weiter@@ 967
änder@@ 966
cher 965
Gen@@ 964
glaube 963
genau 962
sich@@ 962
Ab@@ 961
ic@@ 961
irgend@@ 961
ges 959
ler@@ 959
dan@@ 957
bes@@ 957
De@@ 955
Per@@ 954
Mar@@ 953
besch@@ 948
ändern 946
wurden 943
Ja@@ 938
interess@@ 938
0@@ 937
Diese 937
ih@@ 936
ve 934
ele@@ 932
4@@ 930
ga@@ 930
weiter 929
han@@ 926
ell 923
dig@@ 922
Um@@ 921
ten@@ 921
fan@@ 921
0 920
entwick@@ 920
spr@@ 917
tlich 914
bar@@ 911
itt@@ 909
erzäh@@ 908
ckt 907
nah@@ 903
neue 900
Dies 900
gab 899
zeigen 898
kam 896
eil 896
Teil 896
sse 892
ähr@@ 891
eite 890
pl@@ 888
tre@@ 888
aufen 885
wäre 885
sieht 885
enden 884
ht 884
to@@ 882
eil@@ 882
ges@@ 882
son 881
Leben@@ 881
vom 880
hrer 877
unserer 873
mp@@ 872
ation@@ 871
meiner 870
19@@ 870
nis 867
Ber@@ 865
gi@@ 864
ner 863
sser 862
weiß 860
ta@@ 860
Ein 859
ert 859
allen 858
dazu 858
mand 858
Beispiel 856
Nat@@ 856
oren 855
doch 855
fra@@ 854
Fre@@ 852
Problem 851
zwischen 849
str@@ 848
oo@@ 848
bil@@ 847
pa@@ 844
will 842
stän@@ 841
stem 839
bewe@@ 839
sondern 838
Nach@@ 837
ragen 837
keiten 836
nung 834
it 833
rit@@ 832
etz@@ 831
sch 831
utzen 831
hät@@ 831
form@@ 826
bar 824
gerade 823
kein 822
funktion@@ 821
näch@@ 818
schaffen 818
heraus@@ 817
Mo@@ 817
Ex@@ 815
So 815
Frage 814
einmal 813
verb@@ 813
passiert 812
dafür 810
Millionen 810
Bu@@ 809
mals 808
.@@ 807
steh@@ 807
hin 806
utz@@ 806
mat@@ 805
ug 803
ere 803
za@@ 803
bekommen 801
zwei@@ 799
kennen 798
Stu@@ 798
zeu@@ 798
pf@@ 798
mensch@@ 798
hän@@ 797
sta@@ 797
unde 797
Schul@@ 797
Gesch@@ 796
ften 796
lau@@ 795
kön@@ 795
ff 794
mitt@@ 793
ern@@ 792
Mon@@ 792
Di@@ 792
Prozent 790
warum 790
sprechen 789
wan@@ 788
schei@@ 787
Eine 786
2 786
wahr@@ 783
p 783
zurück 782
olog@@ 782
ser@@ 781
5@@ 780
ber 779
füh@@ 776
arbeiten 773
ohne 773
Mat@@ 771
durch@@ 770
gesehen 770
Tag 768
nichts 767
ung@@ 767
Als 767
iel 766
Wir@@ 766
lü@@ 766
tu@@ 765
zeigt 765
äd@@ 764
Idee 763
atz 763
tern 763
&apos; 760
ehen 760
Mus@@ 760
jeder 759
Wer@@ 759
erste 759
ßt 757
Bi@@ 757
sogar 757
8@@ 756
issen 756
öff@@ 754
ing@@ 754
verstehen 753
Desig@@ 752
inter@@ 752
wohl 749
bi@@ 748
alt 748
sen@@ 747
Rei@@ 745
Arbeit 745
ingen 745
nie@@ 742
6@@ 739
würden 739
mus@@ 738
ziemlich 737
War@@ 737
Gehir@@ 737
ück 736
konnte 735
Wissen@@ 734
... 733
öl@@ 733
ma 732
ganze 731
letzten 729
ierung 729
ersten 728
ging 727
ihren 727
nie 726
etwa 725
mt 724
Plan@@ 722
itte 722
während 721
na@@ 721
Milli@@ 721
win@@ 721
Ih@@ 720
hr 718
kur@@ 718
Geb@@ 718
welche 718
00 718
Dollar 718
ind 715
ele 714
bedeut@@ 714
große 712
get@@ 710
v 707
Die@@ 707
Bild 707
ess@@ 706
mer 705
os 704
Über@@ 704
The@@ 703
ar 702
Talk 700
zur@@ 700
mit@@ 700
Mö@@ 699
eren 699
gten 699
wie@@ 698
gel 697
stand 696
sollte 694
tes 693
rä@@ 690
Wasser 687
pro@@ 686
daran 682
unser 682
iz@@ 682
Ant@@ 680
wer 678
Subtitles 677
Transcript 677
entr@@ 677
9@@ 677
spe@@ 677
meisten 674
äch@@ 673
natürlich 673
erst 672
ko@@ 671
wollte 670
Ihre 669
ut 669
stat@@ 669
ag@@ 667
hau@@ 666
glaub@@ 666
chtig 664
gest@@ 664
star@@ 663
sollten 661
ent 660
pass@@ 659
Land 658
wach@@ 657
mei@@ 657
10 656
iere 655
Weg 655
ts@@ 655
bauen 654
Sache 653
20 653
tion 653
Je@@ 651
Fil@@ 649
sser@@ 648
meinen 648
Indi@@ 646
Comp@@ 646
sy@@ 645
ide@@ 645
stehen 644
ion 644
tung 643
Ö@@ 643
har@@ 642
ander 642
nte 641
1 641
pt@@ 640
ens@@ 640
ckl@@ 639
inder@@ 639
kam@@ 638
mö@@ 638
ser 638
let@@ 638
Sa@@ 636
Q@@ 635
eri@@ 633
Geld 631
lang 629
anden 629
Y@@ 628
ven 627
ins 626
Proble@@ 625
Min@@ 625
wär@@ 624
Ger@@ 623
Proje@@ 622
letz@@ 622
chnologie 621
Wo@@ 621
enz 619
gte 619
og@@ 615
ier 614
enen 613
glau@@ 612
vier 611
fte 610
Fa@@ 609
een 608
Univers@@ 607
zel@@ 604
Sta@@ 603
weg@@ 603
pt 602
gro@@ 601
At@@ 599
50 596
dt 596
Fra@@ 594
bin@@ 594
7@@ 593
kleine 592
hy@@ 592
me@@ 591
per 590
8 588
flu@@ 588
min@@ 586
ka@@ 585
Ne@@ 582
hil@@ 580
igt 579
enn 578
Ä@@ 578
Ra@@ 578
ment@@ 575
ult@@ 573
Ha@@ 572
nam@@ 571
ce 571
ommen 571
„ 567
net 564
onder@@ 563
Ja 561
tro@@ 561
dig 561
Gro@@ 560
3 559
ba@@ 556
eten 556
hi@@ 555
einfa@@ 555
hel@@ 555
gram@@ 554
handel@@ 553
“ 553
bel@@ 552
rop@@ 551
fre@@ 551
x 551
Do@@ 546
keit 544
no@@ 543
So@@ 541
as 540
stru@@ 539
ine 539
Par@@ 538
spro@@ 537
nor@@ 537
itu@@ 536
verk@@ 535
bet@@ 534
Man@@ 534
alis@@ 533
ms 531
&#9@@ 529
4 525
uter 524
berei@@ 523
amil@@ 522
bl@@ 520
sent@@ 518
ment 517
Bo@@ 516
ort 515
sk@@ 515
Dan@@ 513
amer@@ 512
ub@@ 512
mu@@ 511
eiten 510
ov@@ 507
To@@ 507
Afrika 504
rol@@ 504
6 499
uren 498
Ho@@ 495
lig 495
volu@@ 495
Dank 493
w 493
7 493
&apos;s 492
neh@@ 492
richt@@ 488
enten 485
verl@@ 484
ker@@ 484
worden 480
He@@ 480
lange 480
ast@@ 479
dre@@ 476
net@@ 474
Amerik@@ 472
orgen 471
produ@@ 470
gs@@ 467
woh@@ 467
seh@@ 465
ergie 463
dru@@ 463
les 463
kten 462
zo@@ 455
S 453
lang@@ 452
zin@@ 451
ker 449
end@@ 448
deut@@ 444
9 444
as@@ 442
ort@@ 438
racht 437
gend 435
ater 434
vers@@ 432
ant 429
ogra@@ 429
eter 424
ene 421
ve@@ 420
del 419
kel 417
pun@@ 413
eg@@ 413
vert@@ 413
issen@@ 412
weg 412
kra@@ 411
sie@@ 410
ds 409
ppen 406
30 402
200@@ 400
af@@ 398
El@@ 397
elt@@ 395
mlich 394
kel@@ 394
aa@@ 394
ieden@@ 393
100 392
peri@@ 392
oment 390
,@@ 389
gele@@ 389
K 389
erg@@ 388
bew@@ 387
lten 384
mü@@ 383
Bei@@ 382
mor@@ 381
lte 380
.000 379
ku@@ 377
ät 375
lar 374
bo@@ 374
reden 372
Ro@@ 371
pen 370
eer@@ 369
anders 369
kla@@ 364
alle@@ 363
met@@ 362
itten 361
Chin@@ 359
ach@@ 358
wol@@ 357
ganis@@ 356
innen 349
bu@@ 348
Geschich@@ 347
öß@@ 345
ologie 344
land 344
0.000 344
New 344
ill@@ 342
ks 340
bare 336
gra@@ 336
% 335
ia 334
je 333
000 330
gang 329
mar@@ 327
do@@ 327
ali@@ 324
ies 324
gende 322
kre@@ 320
fun@@ 316
om 309
aut@@ 309
wil@@ 307
omm@@ 305
stu@@ 304
au 304
c 304
ris@@ 303
zäh@@ 299
Mil@@ 296
onnen 294
mis@@ 293
ver 291
B 291
beginnen 290
eff@@ 290
spre@@ 290
deren 288
olit@@ 287
sel 282
ron@@ 282
hre 281
int@@ 281
No@@ 277
ac@@ 277
pre@@ 277
dra@@ 277
ou@@ 274
elleicht 273
ug@@ 271
Geh@@ 269
TE@@ 269
pers@@ 265
ke@@ 264
kor@@ 261
omp@@ 261
op 260
ban@@ 255
par@@ 255
organis@@ 254
licht 252
hier@@ 249
ehr 248
20@@ 248
enk@@ 247
yp@@ 247
Tran@@ 244
omen 243
zes 241
un 241
il 238
rel@@ 236
ieder@@ 235
polit@@ 235
natür@@ 235
wirk@@ 235
ir 230
ogen 227
C 227
inge 225
vis@@ 225
wür@@ 224
ple@@ 224
bas@@ 223
bed@@ 223
the@@ 221
ers 221
ven@@ 220
uter@@ 219
werk 218
begr@@ 216
eigen 216
eld 215
els 214
enor@@ 212
geda@@ 207
pra@@ 206
D 206
Kin@@ 205
imp@@ 205
va@@ 201
ren 201
gend@@ 198
ec@@ 195
gingen 193
dies@@ 190
plan@@ 190
bst 189
dro@@ 188
Ü@@ 186
atsächlich 184
po@@ 184
sig@@ 180
die@@ 180
Af@@ 179
V 179
ons 177
ot 176
ktion@@ 175
od 174
I 174
ool 173
aar@@ 171
ief 167
T 167
beit 164
/ 163
aat@@ 162
beste 160
id@@ 160
mil@@ 159
of 158
ährend 156
chts 156
G 153
rik@@ 152
fil@@ 150
medi@@ 150
echt 150
ond 149
syste@@ 147
M 147
ull@@ 145
fot@@ 144
H 143
sl@@ 142
P 140
van@@ 140
ichts 139
hu@@ 139
bren@@ 138
ade 137
kle@@ 134
sc@@ 134
eld@@ 132
atie 130
Tal@@ 130
samen 128
ci@@ 127
gens 127
kop@@ 127
W 125
leu@@ 124
On@@ 122
dige 119
spiel 118
E 117
uit@@ 113
zon@@ 110
rec@@ 109
tit@@ 108
sonder@@ 106
F 106
var@@ 105
oor@@ 104
gebe@@ 104
energie 103
Sub@@ 103
O 102
bro@@ 101
heb@@ 98
na 98
L 95
iemand 94
teren 93
sla@@ 92
ble@@ 90
N 90
werk@@ 90
wur@@ 90
proble@@ 89
kend 89
hat@@ 89
verh@@ 88
elden 88
schien 86
ce@@ 84
— 84
zul@@ 83
oe@@ 82
geme@@ 82
gez@@ 81
het@@ 80
sächlich 80
erg 80
säch@@ 79
dur@@ 78
tot 78
X@@ 77
Afrik@@ 77
ds@@ 76
wen 75
proje@@ 74
Ide@@ 74
gebie@@ 74
vo@@ 73
uden 72
aar 70
ivers@@ 70
sle@@ 69
over 69
kk@@ 66
wa 66
&apos;@@ 65
ook 65
$ 65
landen 64
aal 64
” 62
van 61
zei 61
leren 59
ogar 59
R 58
aat 57
mee 56
ed 56
ct 55
pub@@ 54
beren 54
entwi@@ 53
nat@@ 53
dat@@ 52
dus 51
met 51
Je 50
werken 50
U 49
X 48
ders 48
zwe@@ 46
Proz@@ 45
ire 44
♪ 43
… 43
J 42
ct@@ 42
twe@@ 41
dat 40
comp@@ 39
hebt 39
technologie 39
.. 38
vin@@ 37
staat 36
sn@@ 36
ga 35
Amer@@ 35
dit 34
gels 34
kan 32
dan 32
zet@@ 32
ings@@ 32
&@@ 32
zwi@@ 31
we 31
eicht 30
con@@ 29
kwa@@ 29
ui@@ 28
dacht 28
´ 28
« 27
elk@@ 27
geld 26
» 26
hem 26
ding 26
á@@ 26
é 25
’ 25
oon 25
½ 25
com@@ 24
Y 24
moe@@ 24
° 24
é@@ 22
‘ 22
over@@ 21
ree@@ 21
ij@@ 20
erde 19
open 19
wilde 19
lev@@ 18
Q 18
zit 17
= 17
β@@ 17
onder 16
q@@ 16
Z 16
uit 16
onden 15
² 14
‟ 14
een@@ 14
gd 13
kant 13
kinder@@ 13
ó@@ 13
meer 13
‚ 12
lee@@ 12
ñ@@ 12
belan@@ 11
af 11
We 11
) 11
onge@@ 11
onze 11
cre@@ 10
jon@@ 10
md 10
ü 9
heid 9
iets 9
moment 9
willen 9
Ze 9
jar@@ 9
ggen 9
bedr@@ 8
het 8
wee@@ 8
ript 8
oel 8
binnen 8
foto 8
+ 8
# 8
j 8
q 8
zie 8
zien 8
halen 7
à 7
had 7
kken 7
&apos;n 7
doo@@ 6
@ 6
oor 6
hou@@ 6
mee@@ 6
hoo@@ 6
De 6
oven 6
dingen 6
ó 6
moo@@ 6
aal@@ 6
nu 6
hoe 5
eft 5
bep@@ 5
( 5
aan@@ 5
elde 5
idee 5
è@@ 5
eel 5
erd 5
mensen 4
hoe@@ 4
wel 4
wat 4
í@@ 4
mogel@@ 4
samen@@ 4
zelf@@ 4
› 4
‹ 4
loo@@ 4
ã@@ 4
¼ 3
werd 3
eens 3
œ@@ 3
denk 3
¥ 3
ç@@ 3
kon 3
™ 3
weet 3
aam 3
act@@ 3
â@@ 3
^ 3
β 3
aats 3
` 3
raa@@ 3
ö 2
aan 2
water 2
groe@@ 2
toe@@ 2
bou@@ 2
mid@@ 2
spec@@ 2
* 2
elk 2
haar 2
zich 2
É@@ 2
cont@@ 2
 2
ä 2
oen 2
`@@ 2
jes 2
voe@@ 2
aties 1
manier 1
¾ 1
econ@@ 1
beter 1
niet 1
quot@@ 1
want 1
ú@@ 1
á 1
³ 1
komen 1
En 1
heel 1
© 1
€ 1
Wat 1
® 1
ê@@ 1
én 1
apos@@ 1
dden 1
zoe@@ 1
door 1
к@@ 1
ë 1
à@@ 1
zo 1
š@@ 1
£ 1
bent 1
ā@@ 1
Ç@@ 1
ï@@ 1
noe@@ 1
drie 1
， 1
kij@@ 1
heb 1
î@@ 1
gebru@@ 1
boe@@ 1
twee@@ 1
laten 1
Nu 1
ø@@ 1
